01001000 01001000 00000000 00000000 00000000
10111101 10001011 00000000 00000000 00000000
01010001 01011011 00000000 00000000 00000000
01001000 01001000 00000000 00000000 00000000
01010011 10110000 00000000 00000000 00000000
00110101 10111110 00000000 00000000 00000000
00010110 01010001 00000000 00000000 00000000
01001000 01001000 01001000 01001000 01001000
01000010 01001101 00110000 00110000 00110000
01111010 00111100 01010110 01010110 01010110
10000000 11111111 01101001 01101001 01101001
01001000 01001000 01001000 01001000 01001000
00110100 10010011 11011100 11011100 11011100
01101110 11100100 00101000 00101000 00101000
11011001 10101100 01110010 01110010 01110010
11101110 10101110 11111011 11111011 11111011
01001011 10011100 00110010 00110010 00110010