01001000 10111101 01010001 01001000 01010011 00110101 00010110 01001000 01000010 01111010 10000000 01001000 00110100 01101110 11011001 11101110 01001011
01001000 10001011 01011011 01001000 10110000 10111110 01010001 01001000 01001101 00111100 11111111 01001000 10010011 11100100 10101100 10101110 10011100
00000000 00000000 00000000 00000000 00000000 00000000 00000000 01001000 00110000 01010110 01101001 01001000 11011100 00101000 01110010 11111011 00110010
00000000 00000000 00000000 00000000 00000000 00000000 00000000 01001000 00110000 01010110 01101001 01001000 11011100 00101000 01110010 11111011 00110010
00000000 00000000 00000000 00000000 00000000 00000000 00000000 01001000 00110000 01010110 01101001 01001000 11011100 00101000 01110010 11111011 00110010
