01001011 11111000 00010100 00010100 11100100 00011010 00001111 00000010 11100100 11101101 11011101 00000110 00000011 00001001 00001110 11111101 00001100 00001010 11111010 11101110 11110000 00010011 00011100 11101110 11110110 11111000 11111010 00000100 11110101 11100101 11111101 00000000 11111011 00000101 11111011 00011011 00011001 11110100 11011110 11111001 11111010 00001100 00011101 00011000 11101100 00100011 11101110 00000010 11110110 00001101 00011000 00011110 11110100 11110110 11111110 11010111 11101010 11101100 11111110 11111101 00001011 00100011 00000111 00000101 
00000101 01111001 00011000 11110111 11110101 11111100 11111101 00000001 00000001 00001000 11011011 00000010 11110110 11111001 11111101 00000001 11111101 11111010 11110111 11100000 00000110 11111001 00000111 00000001 11111111 11111010 11111001 00000101 00000100 00001000 11111110 00000100 00000000 11111011 11111010 11111011 11111110 00001010 00001001 00000010 11111110 11110100 11111110 00000010 00000100 00000110 00010110 00000110 11111110 11111111 00000000 00001101 00001110 00000111 00010010 00010101 00000000 00000001 00000000 00000101 00000001 00000011 00000000 00000000 
11111111 00011011 01111111 00011010 11110010 11110101 11111011 11111111 11111110 00000001 11111100 11110101 00000011 11101101 11111100 11111111 11111111 11111100 11111010 11101001 11110001 00000110 11111111 00000001 11111111 00000001 11111110 11111101 11111110 00000011 00000101 00000001 11111111 11111101 11110111 00000110 00000000 00001000 00000001 00000001 00000000 11111110 00000001 11111110 00001100 00000100 00000110 00000010 11111111 00000000 00000101 00000110 00010010 00001011 00001000 00000100 00000000 00000001 00000010 00000111 00000011 00000000 00000001 00000001 
11111111 11111100 00000101 01111111 00001101 11110000 11111100 11111111 11111111 11111100 00000010 11111101 11011010 11111000 11110111 11111101 11111111 11111011 11111101 11101111 11111000 11110100 11111010 11111111 11111111 11111101 11111100 11111111 00000001 00000011 00000011 11111111 11111111 11111111 11111011 11111101 11111111 00000011 00000001 00000001 11111111 00000000 00000001 11111111 00010000 00000011 00000101 00000001 00000000 00001001 00001000 00001000 00010000 00000111 00001000 00000011 00000000 00000001 00000001 00000100 00000011 00000000 00000001 00000001 
11111111 11111111 11111101 00001000 01111111 00001010 11110111 11111111 11111111 11111110 11111000 11111111 11101000 11110000 11111000 11111011 11111111 11111110 11111011 11110111 11110011 11110100 11111010 11111111 11111111 11111111 11111101 11111100 00000001 11111111 11111111 11111111 11111111 00000000 11111110 11111111 00000000 00000011 00000001 11111110 11111111 00000010 00000001 00000001 00000100 00000010 00000100 00000000 00000001 00001011 00000111 00001101 00010000 00000110 00000110 00000001 11111111 00000001 00000001 00001000 00000011 00000000 00000001 00000000 
00000001 11111111 11111110 11111000 00001000 01111111 00001000 11111110 00000000 11111111 11111100 11111011 11111000 11110001 11111010 11111000 00000001 00000001 11111111 11110111 11110011 11110000 11111000 11111110 00000000 00000000 11111111 00000010 11111100 11111100 11111101 11111110 00000000 00000010 00000011 00000100 11111111 00000010 11111111 11111110 00000001 00000110 00000001 00000100 00000000 00000001 11111111 11111111 00000011 00001111 00001011 00001100 00001101 00000100 00000100 11111111 00000001 00000001 00000011 00000101 00000001 00000001 00000001 00000000 
11111111 11111111 11111111 11111100 11110010 00010001 01111111 00000100 00000000 00000000 11111100 11111101 11110000 11101011 00000111 11111000 00000001 00000010 11111111 11110101 11110111 11110101 11101101 11111110 00000000 00000011 00000010 00000001 11111101 11111011 11111101 11111100 00000001 00000010 00000100 00000000 00000000 00000010 11111101 11111110 00000010 00001010 00000011 00000011 00000011 11111111 11111101 11111110 00000100 00001100 00001110 00001000 00001100 00000011 00000011 11111111 11111111 00000011 00000010 00000100 00000001 00000001 00000000 00000000 
00000000 00000010 11111111 11111011 11111001 11100101 00011110 01111111 00000001 00000000 11111110 11111101 11101010 11111100 00000011 00001000 00000001 00000011 00000001 11111100 11101110 11101000 11110100 11111011 00000001 00000001 00000101 00000111 11111101 11111011 11110100 11111110 11111111 00001000 00000011 00000111 00000001 00000101 11111011 11111110 00000000 00001000 00000011 00000001 00000100 00000000 11111101 11111111 11111111 00100000 00001100 00001100 00001000 00000010 00000001 11111111 00000001 00000001 00000001 00000111 00000000 11111111 00000000 00000000 
00000001 00000100 11111101 11111011 11111010 11111111 00000000 00000001 01111111 00011011 11110100 11111110 11100101 11111000 00000110 00000100 00010000 11100101 11111011 11111100 00000111 00001010 00000110 00000001 11111100 11111111 11110100 00000001 11111111 00000110 00001000 00000100 00000001 11111000 11110010 11111110 00000001 00010101 00001010 00000001 11111111 11111000 11111101 11111100 00000011 00000001 00001111 00000011 11111110 11111110 11111110 11111011 00001011 00000001 00010001 11111111 00000001 11111111 00000001 00000000 00000100 00001000 00000111 11111110 
11111111 00000101 00000000 11111010 11111010 11111101 00000001 00000000 00001000 01111111 00001110 11111110 11110100 11111010 11111111 00000010 11111110 00000101 11101010 11110011 00000001 00000111 00000101 00000001 11111101 11110111 11111011 11111011 00000000 00001000 00000100 00000010 11111111 11111101 11110110 00000001 00000001 00010001 00000111 00000010 11111110 11110111 11111111 11111101 00000111 00000101 00001110 00000101 11111111 11111010 11111111 00000100 00001110 00000011 00000110 00001010 11111111 00000001 00000010 00000110 00000110 00001000 00000101 00000011 
11111111 11111011 11111111 00000001 11111000 11111011 11111101 00000000 11111110 00000100 01111111 00000001 11110010 11111000 11111100 00000000 11111101 00000011 11111111 11010010 11111010 00000010 00000001 00000001 11111110 11111011 11111011 00000100 11111111 00000101 00000011 00000001 11111111 11111101 11111100 00000001 00000001 00001010 00000100 00000011 11111111 11111101 11111111 11111111 00001010 00000101 00001001 00000011 00000000 11111101 00000010 00001000 00000111 00000111 00001000 00000011 00000000 00000001 00000011 00001000 00000110 00000111 00000010 00000001 
00000000 00000001 11111100 11111100 00000000 11111000 11111101 11111111 00000000 11111111 00000011 01111111 00010011 11101101 11111010 11111101 11111111 11111100 00000101 11111011 11100101 11111111 11111101 00000000 11111111 11111100 11111101 11111111 00000010 11111111 00000001 00000001 11111111 11111110 11111100 00000100 00000001 00000011 00000001 00000001 11111111 00000001 00000001 00000001 00001011 00000011 00000101 00000011 00000001 00000011 00000101 00000101 00001100 00000111 00000011 00000001 00000001 00000001 00000011 00000111 00000110 00000100 00000011 00000001 
11111111 11111111 00000001 11111010 11111001 11111101 11111101 11111111 11111111 11111111 11111011 00000010 01111111 00001001 11111000 11111100 11111111 11111110 11111101 00000100 00000001 11101010 11111011 11111111 11111111 00000001 11111101 11111111 00000001 00000001 11111111 00000001 00000001 11111111 00000000 11111110 00000010 11111111 11111111 11111110 00000001 00000100 00000001 11111111 00001010 00000011 00000010 00000001 00000001 00000100 00000101 00001010 00001100 00000011 00000011 00000001 00000001 00000010 00000001 00001001 00000101 00000100 00000001 00000001 
00000000 11111111 11111111 11111111 11111010 11111010 11111101 11111111 11111111 11111111 11111101 11111100 00010010 01111111 00000001 11111100 11111111 00000001 11111111 11111000 11110001 00001111 11110111 11111101 00000000 00000001 00000001 11111111 11111101 11111100 11111111 00000000 00000001 00000001 00000010 00001000 11111111 00000001 11111101 11111110 00000001 00000101 00000001 00000100 00000001 00000001 11111111 11111111 00000001 00001010 00001010 00001000 00000110 00000010 00000011 00000001 00000001 00000010 00000100 00001010 00000100 00000011 00000001 00000001 
00000001 00000001 11111111 11111101 11111011 11111011 00000011 00000000 00000001 00000000 11111110 11111101 11110000 11111111 01111111 00000100 00000001 00000001 00000010 00000010 11110010 11101100 00001111 11111110 00000001 00000011 00000011 11111111 11111110 11111101 11110100 00000001 00000001 00000101 00000100 00000110 00000000 11111011 11111101 11111101 00000011 00000110 00000001 00000011 00001001 11111111 11111010 11111111 00000100 00010000 00001000 00000111 00000110 00000001 00000000 11111111 00000001 00000101 00000011 00001001 00000011 00000010 00000001 00000000 
00000000 00000000 11111111 11111101 11111000 11110000 11110110 00000001 00000001 00000001 00000010 11111101 11101110 11100111 00001101 01111111 00000000 00000100 00000011 00000100 11111000 11100101 11101111 00000010 00000001 00001000 00001001 00000100 11111000 11110110 11111000 11110111 00000001 00000110 00001001 00001010 11111111 11111000 11110111 11111011 00000001 00001000 00000011 00000011 00001001 11111101 11110111 11111101 00000011 00011001 00001101 00001101 00000111 00000000 00000001 11111101 11111111 00000101 00000001 00000111 00000001 11111111 11111111 00000001 
00000001 11111101 11111111 11111111 11111101 00000001 00000010 00000001 00001100 11111100 11101110 11111100 11110000 11111111 00000010 00000100 01111111 00011001 00000101 00000011 00001100 00010100 00001100 00000001 00001001 11011111 11110010 11111100 00000001 00001001 00001101 00000010 11110110 11111101 11110011 00000100 11111101 00010010 00001011 00000010 00000001 11110111 11111101 11111100 11110100 00001000 00001100 00000011 11111101 11111010 11111001 11111110 00000111 00000101 00000011 00000101 00000000 11111111 11111111 11111101 00000100 00000101 00000100 00000001 
11111111 11111111 11111110 11111011 11111101 00000001 00000001 00000001 11111011 00000011 00000110 11111100 11101111 00000000 00000101 00000011 00000101 01111111 11111111 00000111 00000100 00001010 00001000 00000010 00000001 00010010 11101110 11111000 11111111 00000111 00000111 00000010 11111110 11110110 11110110 11111100 00000001 00001001 00001000 00000100 11111110 11111011 11111111 11111101 00000111 00000101 00000101 00000101 11111110 11110110 11111100 11111111 00000110 00000100 00000111 00000101 00000000 11111111 11111111 00000001 00000100 00000101 00000100 00000010 
11111111 11111111 11111111 11111110 11111100 11111111 00000000 00000000 11111111 11111010 00000000 00000010 11110011 00000001 00000100 00000010 00000001 11111111 01111111 11111010 00000010 00001010 00000111 00000001 11111110 00000110 00001010 11110110 11111110 00001000 00000101 00000010 00000000 11111100 11110101 00000001 00000000 00001011 00000011 00000011 11111110 11111011 00000000 11111111 00000101 00000011 00001001 00000010 11111101 11111001 11111101 00000000 00000111 00000100 00000010 00000010 11111111 11111111 11111111 00000011 00000101 00000011 00000000 00000001 
11111111 11111111 11111111 11111101 11111101 11111101 11111101 00000000 11111111 11111111 11110000 11111111 00001000 11111010 00000001 00000001 00000000 00000001 11111101 01111111 00001000 00000010 00000011 00000001 11111111 11111100 00000110 00001010 11110100 00000101 00000001 00000001 00000000 11111111 11111110 00000000 00000000 00000101 00000010 00000001 11111111 11111111 00000001 11111110 00001000 00000011 00000100 00000001 11111110 11111101 00000001 00000101 00001111 00000011 00000011 00000001 11111111 00000001 00000001 00000100 00000010 00000001 00000001 00000001 
00000000 00000001 11111111 11111101 11111100 11111011 11111111 11111111 00000001 00000001 11111111 11111011 00000110 11101111 11111000 11111111 00000001 00000001 00000001 00001011 01111111 00000111 11111110 00000001 00000001 11111111 11111011 00000001 00001010 11110101 00000000 11111111 11111111 00000000 11111111 11111011 11111101 00000000 11111111 11111111 00000001 00000011 11111111 00000011 00001001 00000001 00000001 00000001 00000000 00000100 00000010 00001000 00000100 00000001 00000001 00000000 00000000 00000001 00000001 00000011 00000011 00000001 00000001 00000001 
00000000 00000000 00000001 11111110 11111100 11111001 11111101 11111111 00000001 00000001 00000001 11111111 11100111 00001101 11110101 11111011 00000001 00000011 00000011 00000010 00000100 01111111 11111100 11111111 00000001 00000011 00000001 11111100 00000010 00001001 11111000 11111110 00000001 00000011 00000011 11111111 11111111 11111110 11111101 11111110 00000001 00000100 00000001 00000000 00001000 00000001 11111010 11111111 00000001 00000110 00001001 00000011 00000010 00000001 00000000 00000001 00000001 00000011 00000001 00000011 00000001 00000001 11111111 00000001 
00000000 00000001 00000000 11111110 11111100 11111100 11111010 11111111 00000001 00000001 00000001 11111111 11111000 11101111 00001110 11111100 00000001 00000011 00000011 00000100 11111101 11111001 01111111 00000000 00000001 00000101 00000001 00000000 11111000 00000011 00010010 11111110 00000010 00000101 00000010 00000110 11111111 11111111 11111000 11111101 00000010 00001001 00000010 11111111 00001001 11111101 11111001 11111110 00000011 00001001 00001000 00001000 00000000 11111111 00000001 11111110 00000001 00000010 00000010 00000110 00000001 11111111 11111111 11111111 
00000000 00000001 00000000 11111110 11111101 11111000 11111100 11111101 00000001 00000001 00000010 11111111 11111001 11101010 11110010 00001001 00000001 00000101 00000100 00000101 00000011 11111000 11111111 01111111 00000000 00000011 00001000 00001001 11111001 11110111 00000010 00010111 00000001 00000011 00000001 00001101 00000001 11111000 11111100 11110101 00000001 00001000 00000011 00000100 00001000 11111101 11110111 11111100 00000010 00010100 00001000 00000110 11111011 11111111 11111111 11111111 11111111 00000100 00000001 00000001 00000000 11111111 11111111 00000000 
00000001 11111111 11111111 11111110 11111110 00000001 00000001 11111111 11111101 11111010 11110010 11111111 11110000 00001101 00000110 00000010 00001100 00000111 11110010 11111001 00000010 00010111 00010101 11111111 01111111 00001000 11111101 00001000 00000101 00000011 00001110 00000101 00101011 11110110 11110011 11111101 00000010 00000010 00000110 00000000 11110010 11110110 11111101 11111111 00000010 00000101 00001100 00000010 00000001 11111001 11111010 11110010 11111111 00000100 00001001 00000011 11111111 11111111 11111111 11111011 00000000 11111111 00000110 00000010 
00000000 00000001 11111111 11111101 11111111 00000001 00000001 00000000 11111111 11111100 11111010 11111101 00000010 00001011 00000011 00000101 11111100 00001100 00001000 11110000 11111111 00000101 00001010 00000010 00000001 01111111 11111000 00000010 00000010 00000101 00001000 00000101 00000011 00010110 11111010 00000001 11111111 00001010 00000011 00000110 11111110 11110001 11111110 11111100 11110111 00000011 00000101 00000011 11111101 11111100 11111010 11111111 00000101 00000011 00000100 00000001 11111111 11111110 00000000 11111111 00000001 00000110 00000011 00000000 
11111111 11111111 11111111 11111110 11111110 11111111 00000001 00000001 11111111 11111111 11111011 11111110 11110110 00000011 00000100 00000101 11111111 11111000 00000110 00001111 11111001 00000000 00000001 00000011 11111111 11111011 01111111 00000001 00000010 00000101 00000101 00000001 11111101 00000001 00001111 11110101 11111111 00000100 00000110 00000011 11111111 11111011 11111110 11111110 00000001 00000010 00000110 00000001 11111111 11111101 11111110 00000011 00000101 00000011 00000010 00000001 11111111 11111111 00000000 00000011 00000011 00000100 00000010 00000000 
11111111 00000001 11111111 11111111 11111101 00000001 00000000 00000001 11111111 11111110 11111111 11111111 11111011 11111011 11111111 00000010 11111111 11111101 11111001 00001010 00000100 11111000 11111111 00000001 00000001 11111111 00000001 01111111 00001011 00000010 11111101 11111111 00000000 11111100 11111101 00000101 11111110 00001010 00000011 00000001 11111111 11111111 00000001 11111100 00000001 00000100 00000011 00000001 11111111 00000000 00000101 00000100 00001000 00000011 00000001 00000000 11111111 00000001 00000001 00000101 00000100 00000011 00000001 00000001 
11111111 00000001 00000000 00000000 00000001 11111110 00000000 11111111 00000001 11111111 00000000 00000001 00000101 11111100 11111110 11111111 00000000 11111111 11111111 11101100 00001111 00000101 11111000 11111111 00000001 00000001 00000001 00001001 01111111 00000010 11111100 11111111 00000000 11111111 11111001 00010010 11111111 11110011 00000001 00000000 00000001 11111110 00000000 00000011 11110110 11111111 00000000 00000001 00000001 11111111 00000001 00000010 00000011 11111111 11111111 11111111 00000001 00000001 00000001 00000001 00000001 00000000 00000000 00000001 
00000000 00000000 00000001 00000001 11111111 11111101 11111110 11111111 00000001 00000010 00000011 00000000 00000010 11111001 11111110 11111101 00000001 00000011 00000101 00001000 11101111 00010100 00000100 11111110 00000001 00000011 00000100 00000001 00000010 01111111 11111101 11111101 11111111 00000000 00000100 00000001 00000010 00001011 11111110 11111111 00000001 00000001 00000010 00000010 00001100 11111110 11111100 11111111 00000001 00000110 00000010 00000001 11111111 11111111 11111101 11111111 00000000 00000001 00000001 00000001 11111110 00000000 11111111 00000000 
00000001 00000000 00000001 00000010 11111111 11111101 11111110 11111111 00000001 00000010 00000011 00000001 11111111 11111100 11110000 11111100 00000010 00000100 00000101 00000100 11111110 11101101 00011011 00000000 00000010 00000110 00000110 11111011 11111011 11111100 01111111 11111011 00000001 00000100 00000110 11111101 11111100 11111011 00001011 11111111 00000010 00000111 00000011 00000011 00000101 00000001 11111000 11111110 00000011 00000100 00000101 00000111 00000001 11111110 11111110 11111101 00000000 00000011 00000001 00000011 11111111 11111111 11111111 00000000 
11111111 11111111 00000000 11111101 11111011 11111001 11111011 11111111 00000001 00000010 00000100 00000001 00000011 11111110 00000101 11110100 00000000 00000010 00000100 00001011 11110111 11110110 11111000 00001111 00000001 00001111 00000100 11110111 11111000 11110101 11101110 01111111 11111111 00001010 00000100 11111010 11111001 11100011 11111010 00101110 00000100 00001011 11111101 11111111 11111000 00000010 00000111 11111000 00000000 00010111 00001000 00001100 00001011 11111101 11111101 11111110 00000001 00000010 00000001 00000001 11111111 11111100 11111101 00000000 
11111111 11111111 11111111 11111110 11111111 11111111 00000010 11111111 00000000 11111101 11111011 11111110 00000011 00000101 00000100 00000100 11111011 11111100 11111111 11111101 11111110 00001001 00001010 11111111 00010011 00001100 11110110 11110111 11111011 11111111 00001001 00000010 01111111 11110110 11110111 00001100 00000001 00000111 00001101 00001000 00100011 11111101 11111111 11111011 11111011 00000011 00000100 11111110 11101101 11111010 11111001 11111111 00000001 00000100 00000001 00000001 00000001 11111111 11111111 11111110 11111111 00000001 00000101 00000001 
11111111 11111111 11111111 11111111 00000001 00000001 00000010 00000001 11111111 11111111 11111100 11111111 11110111 00000010 00001010 00000101 11111111 11111000 11111011 11111100 11111111 00001010 00001001 00000001 11111110 00011010 00000000 11110101 11111111 00000001 00000110 00000101 11111110 01111111 00000011 00000011 00000010 00001010 00001011 00000110 00000011 00011010 11111101 00000000 00000010 00000011 00000110 00000010 11111101 11101110 11111010 11111000 00000010 00000011 00000001 00000011 11111111 11111111 11111111 11111111 11111111 00000001 00000011 00000001 
00000000 11111111 11111111 11111111 11111111 00000011 00000001 00000001 11111111 11111110 11111101 11111111 11111110 00000111 00000011 00000011 11111111 11111101 11111010 11111100 11111111 00000110 00000010 00000001 11111111 11111100 00001010 11111111 11111010 00000100 00000101 00000001 11111110 00000001 01111111 00100111 11111111 00001111 00001000 00000001 11111111 11111110 00000010 11110111 00000001 00000011 00000100 00000011 11111111 11111001 11111010 11111110 00000001 00000010 00000011 00000001 11111111 11111111 11111111 11111101 11111111 00000001 00000001 00000001 
00000000 11111111 00000001 11111111 11111111 00000001 00000001 00000001 11111111 11111111 11111111 00000001 11111111 00000111 00000101 00000011 00000001 11111111 00000001 11111111 11111101 00000001 00000011 00000001 11111111 11111111 11111011 00000010 00001001 00000001 11111111 11111111 00000001 00000001 00010011 01111111 00001010 00000000 11111101 00000000 11111111 11111011 00000001 00000010 11111001 00000001 00000000 00000001 11111111 00000000 00000001 11111101 11111111 11111111 00000001 00000010 11111111 11111111 00000000 00000001 11111111 11111111 00000001 00000000 
00000000 11111111 00000000 00000000 11111111 11111111 00000001 00000001 00000001 00000000 00000000 00000001 00000110 11111101 00000000 00000001 11111111 00000000 11111111 11111111 11111101 11111110 11111111 11111111 00000000 11111111 00000000 11111011 11111111 00000011 11111100 11111111 00000000 00000001 00000000 00011111 01111111 11111111 11111110 00000001 11111111 11111110 11111111 00001000 00010001 11111111 11111111 11111111 11111111 11111101 11111111 00000100 11111111 11111111 11111111 00000000 11111111 00000001 00000001 11111111 00000001 00000000 00000001 00000000 
00000001 00000001 00000001 00000001 00000001 00000001 00000001 00000001 00000001 00000010 00000100 00000001 00000001 11111110 11111101 11111111 00000001 00000010 00000100 00000101 11111111 11111111 11111111 11111111 00000001 00000011 00000010 00000100 11111000 00000110 11111101 11111100 00000000 00000010 00001010 11111111 11111111 01111111 11111101 11111111 00000001 00000001 11111111 11111101 00000111 00000110 11111111 11111101 00000010 11111110 11111110 00000001 11111101 11111110 00000000 11111111 00000001 00000001 00000001 11111111 11111101 11111111 11111111 00000000 
00000000 00000001 00000001 00000001 00000001 11111111 11111110 11111111 00000001 00000011 00000100 00000001 11111101 11111000 11111101 11111100 00000001 00000100 00000011 00000111 11111101 11110111 11101111 11111111 00000001 00000001 00001010 00000100 00000001 11111101 00010001 11111100 00000010 00001000 00001111 11110100 11111101 11110111 01111111 11111101 00000001 00000111 00000011 00000000 11110101 11111110 00010110 11111101 00000010 00000101 00000100 00000110 00000100 11111101 11111101 11111101 00000001 00000001 00000001 00000001 11111111 11111110 11111111 00000000 
00000001 00000000 00000001 00000010 11111110 11111010 11111100 00000000 00000001 00000001 00000100 00000001 11111011 11110100 11110110 11111010 00000000 00000101 00000100 00000010 11111101 11110100 11111001 11111010 11111111 00000111 00000101 00000100 11111110 11111101 11111110 00100101 00000101 00000111 00000001 11111110 00000010 11111001 11110111 01111111 11111111 00010000 00000011 00000010 11111010 11111001 00000010 00010011 00000001 11111100 00000101 00000111 00000101 00000010 11111110 11110111 00000001 00000001 00000000 00000001 11111111 11111111 11111110 00000001 
00000000 11111111 00000000 11111111 11111110 00000011 00000100 00000000 11111111 11111101 11111100 00000001 00000111 00010110 00010011 00000011 00000000 11111100 11111011 11111010 00001010 00001010 00010010 00000001 11111010 11110111 11111010 00001000 00000110 00000100 00000110 00000111 00011111 00001011 11110011 11111110 11111110 11111111 00000100 11111111 01111111 11101100 11111101 00000001 00001100 00000101 00001100 00000001 00100000 00010000 11111101 11110111 11111010 00000000 00000111 00000001 11111101 11111010 11111101 11111000 11111101 11111110 11111101 11111111 
00000001 11111111 00000000 00000000 00000010 00000111 00000101 00000001 11111111 11111110 11111101 00000001 00001011 00010100 00001000 00000101 11111111 11111101 11111100 11111101 00001001 00001011 00001111 00000001 11111111 11110100 11111010 00000011 11111111 00000010 00001001 00000110 11111111 00010000 11111101 11110110 11111110 00000001 00000111 00000101 11111100 01111111 00000001 11111110 00001011 00000101 00001001 00000011 11111101 00100100 11111101 11111001 11110101 11111111 00000011 00000011 11111111 11111100 11111101 11111011 11111111 11111111 00000001 00000000 
11111111 11111111 00000001 00000001 00000010 00000011 00000011 00000001 11111111 11111111 11111111 11111111 00000100 00000100 00000101 00000011 11111111 11111110 11111111 00000100 11111100 00000100 00000110 00000001 11111111 11111101 11111010 00000001 00000001 00000111 00000111 00000000 11111111 11111011 00001000 00000011 11111111 11111111 00000100 00000011 11111110 00000011 01111111 00010000 00000110 00000011 00000111 00000011 11111101 11110110 00000111 11110111 00000100 00000010 00000001 00000001 11111111 11111111 11111101 11111110 11111110 00000000 00000001 00000001 
11111111 00000000 00000001 11111111 00000001 00000011 00000001 00000001 00000000 11111111 11111111 00000001 11111111 00000111 00000100 00000010 11111111 11111111 11111111 11111110 00000100 11111111 11111111 00000001 11111111 11111110 11111111 11111100 00000011 00000010 00000010 11111111 11111111 11111111 11110110 00000101 00000101 11111100 00000001 00000001 00000001 11111111 00000100 01111111 00001000 00000001 00000010 00000001 11111111 11110101 00000001 00001000 11110000 11111111 11111111 00000001 11111111 11111111 00000001 11111010 11111111 11111101 00000001 00000001 
00000001 00000000 00000001 00000011 00000010 00000000 00000001 00000001 00000001 00000001 00000100 00000011 00001000 00000101 00000101 00000001 11111111 00000010 00000010 00001010 00000111 00000110 00000100 00000001 00000001 11111111 00000001 11111111 11111010 00000100 00000010 11111110 11111111 00000000 00000011 11110110 00000101 00000011 11111100 11111111 00000001 00000100 00000001 00000100 01111111 11111100 11111100 11111111 00000001 11111111 11111001 00000001 00001011 11111000 11111100 00000000 00000001 11111110 11111101 11111101 11111101 11111101 11111111 11111111 
00000000 00000001 00000001 00000011 00000011 00000011 11111111 11111111 00000001 00000010 00000110 00000011 00001101 00000011 00000001 11111111 00000001 00000100 00000100 00001000 00000101 00000001 11111001 11111111 00000001 00000011 00000011 00000101 11111101 11111010 00000001 00000000 00000001 00000011 00000111 00000000 11111110 00011010 11111101 11111100 00000010 00000111 00000011 00000011 11110001 01111111 11111000 11111111 00000001 00000110 00000001 11111100 00000101 00000100 11110101 11111111 00000001 00000000 11111111 11111011 11111101 00000010 00000000 11111111 
00000001 00000010 00000001 00000011 00000100 11111110 11111110 11111111 00000001 00000100 00001000 00000011 00000111 11111010 11111001 11111100 00000001 00000011 00000111 00001011 00000001 11110100 11110111 11111101 00000001 00000101 00001000 00000010 11111111 11111010 11111000 00000001 00000001 00000011 00000101 11111101 11111111 11111101 00001110 11111111 00000011 00001001 00000011 00000010 11110100 11111010 01111111 11111110 00000010 00001000 00000101 00000001 11111000 00000011 00000110 11111010 00000001 00000001 00000000 11111111 11111110 11111011 11111111 00000000 
11111111 00000010 00000001 00000001 11111111 11111011 11111101 11111111 00000010 00000101 00001011 00000100 00001011 11111001 11111001 11111101 00000000 00001001 00000101 00001110 00000011 11110110 11110110 11111110 00000001 00001000 00000110 00000101 00000001 11111010 11111010 11111000 11111111 00000101 00001010 00000101 11111011 11110010 11111000 00011100 00000001 00001001 00000011 00000101 00000010 11111101 11111011 01111111 00000001 00010000 00000101 11111100 11110111 11111000 00001010 00001110 00000001 00000001 00000000 11111100 11111011 11111010 11111010 11111110 
00000000 11111111 11111111 00000001 00000110 00001100 00001100 00000001 11111111 11111110 11111101 00000001 00001010 00010101 00011100 00000101 11111111 11111100 11111001 11110101 00000110 00001110 00010001 00000011 11111111 11111001 11111001 11111100 00001000 00001001 00001110 00000001 11110101 11111000 11111100 11111000 11111111 00010100 00000111 00000011 00010101 11111000 11111100 11111110 00000101 00000100 00000111 00000010 01111111 00010100 11110100 11110110 11111001 00000010 00000011 11111111 00000100 00000001 11111100 11110111 11111110 11111111 00000001 00000000 
00000000 11111111 00000001 00000100 00001000 00001100 00000110 00000011 11111111 11111111 11111111 00000001 00001011 00010110 00010010 00001001 11111111 11111100 11111100 11111101 00001010 00001111 00001110 00000011 11111111 11111101 11111100 11111110 00000010 00000111 00000011 00000011 11111111 11111000 11111010 11111110 11111111 00000000 00000100 00000010 00000010 00011000 11111101 11110110 11111100 00000011 00001000 00000011 00000001 01111111 11111111 11110110 00000000 11111111 00000000 00000100 11111101 00000001 11111111 11111010 11111101 00000000 00000001 00000000 
00000000 11111111 00000001 00000011 00000101 00001010 00000110 00000001 00000000 11111111 00000001 00000010 00001001 00011000 00001010 00000101 11111111 11111111 11111111 00000000 00000101 00010010 00001100 00000001 11111111 11111101 11111111 00000101 00000001 00000011 00000101 00000011 11111111 11111101 11111001 00000001 11111111 11111011 00000011 00000010 11111111 11111111 00000010 00000001 11101110 00000001 00000101 00000001 11111101 00000011 01111111 00000100 11111011 11111111 00000001 00000001 11111111 11111100 11111111 11110111 11111111 11111110 11111111 11111111 
00000000 00000000 00000001 00000011 00000111 00001000 00000011 00000001 00000000 00000001 00000100 00000011 00010010 00001110 00000101 00000100 11111111 00000000 00000001 00001000 00001111 00000110 00001000 00000001 11111111 11111111 00000011 00000001 00000011 00000001 00000101 00000011 00000001 11111110 11111111 11111001 00000010 00000001 00000100 00000010 11111111 11111011 11111101 00001000 00000110 11111110 00000001 11111111 11111111 11111001 00000100 01111111 11111101 11111101 00000000 00000001 00000001 11111101 11111110 11111100 11110101 11111100 11111111 11111111 
00000001 00000001 00000001 00000101 00000110 00000110 00000011 00000001 00000001 00000011 00000100 00000011 00010010 00000101 00000100 00000001 00000001 00000011 00000100 00010010 00000111 00000011 00000000 11111111 00000001 00000011 00000011 00000011 00000010 11111111 00000001 00000010 00000001 00000001 00000001 11111111 11111111 11111100 00000001 00000001 11111111 11111100 00000001 11110110 00010001 00000001 11111011 11111111 11111111 00000001 11111101 11111101 01111111 11111110 11111100 11111111 00000001 00000000 11111110 11111001 00000001 11110011 11111110 11111111 
00000000 00000001 00000010 00000101 00000111 00000101 00000001 00000001 00000001 00000001 00001000 00000101 00001100 00000111 00000010 00000001 00000001 00000011 00000110 00001011 00000100 00000011 11111111 11111111 00000001 00000100 00000101 00000011 11111111 11111111 11111100 00000000 00000001 00000010 00000101 11111111 11111111 11111000 11111100 00000001 00000001 11111111 00000001 00000000 11011111 00000011 00000110 11111101 00000001 00000001 11111110 11111011 11111011 01111111 11111111 11111101 00000001 11111111 11111111 11111101 11111111 00000100 11111100 11111111 
00000001 00000010 00000011 00001000 00001010 00000101 00000001 11111111 00000011 00000100 00001110 00000011 00010000 00000101 11111111 11111111 00000001 00000111 00000100 00001010 00000100 11111110 11111111 11111111 00000001 00000101 00000110 00000000 11111101 11111000 11111011 11111101 00000010 00000011 00000111 00000001 11111111 00000001 11111011 11111111 00000011 00000110 00000001 00000000 11110000 11110011 00001100 00000011 00000010 00000101 00000011 00000010 11110011 11111101 01111111 00001001 00000001 00000001 11111111 11111110 00000001 00000111 00000101 00000001 
00000000 00000101 00000011 00000101 00000101 11111110 11111101 11111111 00000000 00001001 00001011 00000100 00010101 00001001 11111111 11111100 00000010 00000111 00000110 00001010 00000001 00000011 11110111 11111111 00000001 00000010 00000111 11111101 11111101 11111011 11111010 11111101 00000001 00000101 00000111 00001101 11111110 11110010 11111001 11110100 00000001 00001010 00000010 00000110 00000010 11111101 11101011 00001001 11111111 00010001 00000101 00000011 11111010 11111010 00010010 01111111 00000000 00000001 11111111 11111001 11111010 11111001 11111111 00000110 
00000000 00000001 11111111 00000000 00000000 00001001 11111111 00000001 00000001 11111110 00000001 00000010 00010010 00010010 00010010 00000000 11111110 11111100 11111011 11110001 11111111 00010000 00011100 00000001 11111101 11111101 11110110 11111111 00001110 00000100 11111100 00000100 00000001 11111011 11111001 00000010 11111111 00000111 00000110 00000011 11110110 11111100 11111101 11110100 11111010 00000100 00001010 00000010 00010000 11101011 11111011 11111111 11111101 11111111 00000001 00000001 01111111 00011011 11110011 11110110 11111100 11111011 00000000 00000000 
11111111 00000010 00000000 00000001 00000011 00000001 00000101 00000000 11111111 11111111 00000010 00000001 00001110 00010000 00010111 00001001 11111111 11111111 11111101 11111111 00000110 00010000 00001000 00000011 00000000 11111011 11111100 00000100 00000011 00000101 00000111 00000011 11111111 11111101 11111010 11111100 00000001 00000011 00000101 00000001 11111011 11110100 00000001 11111110 11101111 00000001 00000011 00000001 00000011 00001010 11110001 11110100 00000001 11111111 00000001 00000001 00000101 01111111 00001001 11110011 11111100 11111110 00000000 00000000 
00000000 00000000 00000001 00000001 00000001 00000111 00000010 00000001 11111111 00000001 00000101 00000010 00000110 00100011 00001111 00000011 11111111 11111111 11111111 00000110 00001000 00001001 00001101 00000001 11111111 11111110 11111111 00000011 00000100 00000011 00000101 00000001 11111111 11111110 11111011 11111100 00000000 00000000 00000011 00000001 11111101 11111000 11111101 00000001 11110000 11111111 00000001 00000000 11111101 00000010 11111101 11110111 11110100 11111111 11111110 11111111 11111110 00000101 01111111 00000110 11111011 11111011 11111111 00000000 
00000001 00000000 00000001 00000001 00000101 00000011 00000001 00000001 00000000 00000001 00000110 00000011 00010110 00010110 00001010 00000011 11111111 00000001 00000011 00001000 00001000 00001000 00001010 00000001 11111111 11111111 00000011 00000101 00000010 00000001 00000010 00000001 11111111 11111111 11111011 11111111 11111110 11111110 00000001 00000001 11111111 11111100 11111111 11111000 11111001 11111101 11111111 11111111 11111110 11111010 11111000 11111100 11110100 11111110 11111111 11111110 11111111 11111101 00000010 01111111 00000001 11111010 11111111 11111111 
00000000 00000001 00000001 00000001 00000011 00000001 00000001 00000000 00000001 00000010 00000111 00000100 00010010 00001110 00000111 00000001 00000001 00000011 00000101 00000100 00001000 00000011 00000100 11111111 00000000 00000001 00000101 00000101 00000011 11111100 00000001 00000000 11111111 11111111 11111111 11111110 00000001 11111011 11111111 11111111 11111111 11111111 11111111 11111101 11111101 11111101 11111101 11111101 11111111 11111011 11111111 11100111 00000101 11111111 00000001 11111101 11111111 11111110 11111101 00000010 01111111 00000011 11111100 11111111 
00000000 00000000 00000000 00000000 00000001 00000000 00000000 11111111 00000010 00000100 00001001 00000100 00010011 00000111 00000100 11111111 00000001 00000101 00000101 00000110 00001000 00000010 11111110 11111111 00000001 00000111 00001001 00000100 11111111 11111111 11111110 11111111 00000000 00000001 00000010 00000000 00000000 11111011 11111110 11111110 00000001 11111111 00000001 11111100 11110111 00000001 11110101 11111101 11111111 00000001 11111101 11111000 11010111 00000100 00000110 11111101 11111111 11111111 11111101 11110100 00000011 01111111 00000011 11111101 
11111111 11111111 00000001 00000010 00000001 00000001 11111110 11111111 00000011 00000110 00001000 00000110 00010100 00001100 00000101 11111110 00000001 00001010 00000001 00000111 00000100 11111110 11111010 11111111 00000011 00001011 00001010 00000111 11111111 11111111 11111100 11111101 00000011 00000111 00001000 11111111 00000010 11111000 11111011 11111100 11111111 11111111 00000001 00000010 11111010 00000000 11111111 11111000 00000011 00000001 11111110 11110101 11110000 11110100 00010100 11111111 00000000 11111111 11111101 11110111 11110010 00001011 01111111 00000110 
00000000 11111101 00000010 00000010 00000011 00000000 11111110 11111111 11111111 00001101 00000111 00000110 00010110 11111101 00000110 11111111 00000001 00010000 00001011 00000000 00001101 11111001 11111010 11111111 00000100 11111111 11111110 00000001 00000101 11111011 11111000 11111101 00000001 00001001 00000001 11110111 00000001 00000000 11111110 11111110 11111111 00001001 00000110 11111111 11111100 11111000 11110110 11110110 00000011 00000011 11111101 11110000 11111110 11111100 11111011 00100110 00000000 11111111 00000000 11110110 11111000 11101100 00011101 01111111 
00000000 00000000 00000000 00000000 00000000 00000000 00000000 00000000 00000000 00000000 00000000 00000000 00000000 00000000 00000000 00000000 00000000 00000000 00000000 00000000 00000000 00000000 00000000 00000000 00000000 00000000 00000000 00000000 00000000 00000000 00000000 00000000 00000000 00000000 00000000 00000000 00000000 00000000 00000000 00000000 00000000 00000000 00000000 00000000 00000000 00000000 00000000 00000000 00000000 00000000 00000000 00000000 00000000 00000000 00000000 00000000 00000000 00000000 00000000 00000000 00000000 00000000 00000000 00000000 
